#ifndef UUID1486949300560
#define UUID1486949300560

#include <EloquentTinyML.h>
#include <eloquent_tinyml/tensorflow.h>

#ifdef __has_attribute
#define HAVE_ATTRIBUTE(x) __has_attribute(x)
#else
#define HAVE_ATTRIBUTE(x) 0
#endif
#if HAVE_ATTRIBUTE(aligned) || (defined(__GNUC__) && !defined(__clang__))
#define DATA_ALIGN_ATTRIBUTE __attribute__((aligned(4)))
#else
#define DATA_ALIGN_ATTRIBUTE
#endif

#ifndef ARENA_SIZE
#define ARENA_SIZE 4096
#endif

/** model size = 3164 bytes **/
const unsigned char modelData[] DATA_ALIGN_ATTRIBUTE = { 0x1c, 0x00, 0x00, 0x00, 0x54, 0x46, 0x4c, 0x33, 0x14, 0x00, 0x20, 0x00, 0x1c, 0x00, 0x18, 0x00, 0x14, 0x00, 0x10, 0x00, 0x0c, 0x00, 0x00, 0x00, 0x08, 0x00, 0x04, 0x00, 0x14, 0x00, 0x00, 0x00, 0x1c, 0x00, 0x00, 0x00, 0x90, 0x00, 0x00, 0x00, 0xe8, 0x00, 0x00, 0x00, 0x00, 0x07, 0x00, 0x00, 0x10, 0x07, 0x00, 0x00, 0x08, 0x0c, 0x00, 0x00, 0x03, 0x00, 0x00, 0x00, 0x01, 0x00, 0x00, 0x00, 0x10, 0x00, 0x00, 0x00, 0x00, 0x00, 0x0a, 0x00, 
0x10, 0x00, 0x0c, 0x00, 0x08, 0x00, 0x04, 0x00, 0x0a, 0x00, 0x00, 0x00, 0x0c, 0x00, 0x00, 0x00, 0x1c, 0x00, 0x00, 0x00, 0x38, 0x00, 0x00, 0x00, 0x0f, 0x00, 0x00, 0x00, 0x73, 0x65, 0x72, 0x76, 0x69, 0x6e, 0x67, 0x5f, 0x64, 0x65, 0x66, 0x61, 0x75, 0x6c, 0x74, 0x00, 0x01, 0x00, 0x00, 0x00, 0x04, 0x00, 0x00, 0x00, 0x98, 0xff, 0xff, 0xff, 0x09, 0x00, 0x00, 0x00, 0x04, 0x00, 0x00, 0x00, 0x07, 0x00, 0x00, 0x00, 0x64, 0x65, 0x6e, 0x73, 0x65, 0x5f, 0x32, 0x00, 0x01, 0x00, 0x00, 0x00, 0x04, 0x00, 0x00, 0x00, 0xca, 0xf9, 0xff, 0xff, 0x04, 0x00, 0x00, 0x00, 0x0b, 0x00, 0x00, 0x00, 0x64, 0x65, 0x6e, 0x73, 0x65, 0x5f, 0x69, 0x6e, 0x70, 0x75, 0x74, 0x00, 0x02, 0x00, 0x00, 0x00, 0x34, 0x00, 0x00, 0x00, 0x04, 0x00, 0x00, 0x00, 0xdc, 0xff, 0xff, 0xff, 0x0c, 0x00, 0x00, 0x00, 0x04, 0x00, 0x00, 0x00, 0x13, 0x00, 0x00, 0x00, 0x43, 0x4f, 0x4e, 0x56, 0x45, 0x52, 0x53, 0x49, 0x4f, 0x4e, 0x5f, 0x4d, 0x45, 0x54, 0x41, 0x44, 0x41, 0x54, 0x41, 0x00, 0x08, 0x00, 0x0c, 0x00, 0x08, 0x00, 0x04, 
0x00, 0x08, 0x00, 0x00, 0x00, 0x0b, 0x00, 0x00, 0x00, 0x04, 0x00, 0x00, 0x00, 0x13, 0x00, 0x00, 0x00, 0x6d, 0x69, 0x6e, 0x5f, 0x72, 0x75, 0x6e, 0x74, 0x69, 0x6d, 0x65, 0x5f, 0x76, 0x65, 0x72, 0x73, 0x69, 0x6f, 0x6e, 0x00, 0x0d, 0x00, 0x00, 0x00, 0x14, 0x06, 0x00, 0x00, 0x0c, 0x06, 0x00, 0x00, 0xbc, 0x05, 0x00, 0x00, 0xa0, 0x05, 0x00, 0x00, 0x50, 0x05, 0x00, 0x00, 0x00, 0x05, 0x00, 0x00, 0xf0, 0x00, 0x00, 0x00, 0xa0, 0x00, 0x00, 0x00, 0x98, 0x00, 0x00, 0x00, 0x90, 0x00, 0x00, 0x00, 0x88, 0x00, 0x00, 0x00, 0x68, 0x00, 0x00, 0x00, 0x04, 0x00, 0x00, 0x00, 0x76, 0xfa, 0xff, 0xff, 0x04, 0x00, 0x00, 0x00, 0x54, 0x00, 0x00, 0x00, 0x0c, 0x00, 0x00, 0x00, 0x08, 0x00, 0x0e, 0x00, 0x08, 0x00, 0x04, 0x00, 0x08, 0x00, 0x00, 0x00, 0x10, 0x00, 0x00, 0x00, 0x24, 0x00, 0x00, 0x00, 0x00, 0x00, 0x06, 0x00, 0x08, 0x00, 0x04, 0x00, 0x06, 0x00, 0x00, 0x00, 0x04, 0x00, 0x00, 0x00, 0x00, 0x00, 0x00, 0x00, 0x00, 0x00, 0x0a, 0x00, 0x10, 0x00, 0x0c, 0x00, 0x08, 0x00, 0x04, 0x00, 0x0a, 0x00, 
0x00, 0x00, 0x02, 0x00, 0x00, 0x00, 0x02, 0x00, 0x00, 0x00, 0x04, 0x00, 0x00, 0x00, 0x06, 0x00, 0x00, 0x00, 0x32, 0x2e, 0x31, 0x32, 0x2e, 0x30, 0x00, 0x00, 0xd6, 0xfa, 0xff, 0xff, 0x04, 0x00, 0x00, 0x00, 0x10, 0x00, 0x00, 0x00, 0x31, 0x2e, 0x35, 0x2e, 0x30, 0x00, 0x00, 0x00, 0x00, 0x00, 0x00, 0x00, 0x00, 0x00, 0x00, 0x00, 0xc0, 0xf5, 0xff, 0xff, 0xc4, 0xf5, 0xff, 0xff, 0xc8, 0xf5, 0xff, 0xff, 0xfe, 0xfa, 0xff, 0xff, 0x04, 0x00, 0x00, 0x00, 0x40, 0x00, 0x00, 0x00, 0x81, 0x0b, 0x8c, 0x3e, 0x6b, 0x54, 0xf6, 0xbe, 0x8e, 0xdd, 0x04, 0x3f, 0x5d, 0xe0, 0x86, 0x3e, 0xc2, 0xd3, 0xee, 0xbd, 0xd8, 0x72, 0xd7, 0xbe, 0xbe, 0xd2, 0x13, 0xbf, 0xe0, 0x41, 0x87, 0x3e, 0xb5, 0x73, 0x08, 0x3e, 0xae, 0xac, 0xe0, 0xbe, 0x00, 0xee, 0x06, 0xbf, 0x54, 0x6e, 0x0e, 0x3e, 0x80, 0x3d, 0x94, 0xbd, 0xc6, 0x3a, 0xb7, 0x3e, 0x77, 0x11, 0x55, 0x3e, 0xe3, 0xc0, 0x80, 0xbf, 0x4a, 0xfb, 0xff, 0xff, 0x04, 0x00, 0x00, 0x00, 0x00, 0x04, 0x00, 0x00, 0x00, 0x50, 0x4a, 0x39, 0x72, 0x50, 0xaf, 0x3e, 0x5e, 
0xfe, 0x20, 0x3e, 0x83, 0xd4, 0xd4, 0xbe, 0x69, 0x24, 0x66, 0xbe, 0x86, 0xa2, 0x3c, 0xbe, 0xf2, 0xd1, 0x11, 0x3e, 0xf6, 0x1a, 0x5c, 0x3e, 0x12, 0x3c, 0x8d, 0xbe, 0x6c, 0x4e, 0xa9, 0x3e, 0xf1, 0xb4, 0xdc, 0x3e, 0x61, 0xaa, 0x85, 0x3e, 0xf9, 0xc9, 0x84, 0xbe, 0x47, 0x90, 0xc3, 0x3e, 0xa2, 0x06, 0x43, 0xbe, 0x20, 0xf2, 0x11, 0xbe, 0x80, 0xbe, 0x31, 0x3b, 0x34, 0x9e, 0xa3, 0x3e, 0x34, 0xa0, 0xa7, 0x3d, 0x77, 0x8c, 0x92, 0x3e, 0x47, 0x30, 0x6b, 0xbe, 0xc3, 0x2a, 0x97, 0x3e, 0x42, 0xa7, 0x43, 0x3e, 0x14, 0x38, 0xb0, 0x3d, 0xcf, 0x82, 0x79, 0xbe, 0xe8, 0x5d, 0x86, 0xbd, 0x22, 0xe0, 0xb4, 0xbe, 0x91, 0x48, 0xd6, 0x3e, 0x9b, 0xf0, 0x62, 0x3e, 0x12, 0x9a, 0x34, 0x3e, 0x02, 0xcb, 0x40, 0x3e, 0x7c, 0x3e, 0xce, 0xbe, 0x57, 0x95, 0xb6, 0xbe, 0x80, 0x34, 0x09, 0x3b, 0x3d, 0x71, 0x43, 0xbe, 0x07, 0x5f, 0x98, 0x3e, 0x6a, 0x40, 0x39, 0x3e, 0x5a, 0x68, 0x48, 0x3e, 0x80, 0xf1, 0x5f, 0xbe, 0xdc, 0x57, 0xbf, 0x3d, 0xd8, 0x47, 0x97, 0xbd, 0x00, 0x3e, 0x89, 0xbd, 0xe8, 0xe7, 0x23, 0x3d, 
0x68, 0x96, 0xc9, 0xbd, 0x68, 0xde, 0x5f, 0x3d, 0x4a, 0xc9, 0x06, 0x3e, 0x13, 0x88, 0x8c, 0xbe, 0x80, 0x93, 0x22, 0xbc, 0xd8, 0x07, 0x9c, 0xbd, 0x67, 0xb4, 0x62, 0xbe, 0xf6, 0x43, 0x97, 0xbe, 0x7b, 0xbc, 0xa0, 0xbe, 0x60, 0x4d, 0xea, 0xbc, 0x88, 0x84, 0xb8, 0xbe, 0x3c, 0x4a, 0x98, 0x3d, 0xb0, 0xe8, 0x94, 0x3c, 0xd1, 0xb7, 0xe8, 0x3e, 0x01, 0x40, 0xad, 0xbe, 0xdc, 0xeb, 0x8c, 0x3d, 0x92, 0xba, 0xbd, 0x3d, 0x14, 0x9b, 0x2c, 0xbe, 0x6d, 0xcd, 0xd5, 0xbe, 0x34, 0x58, 0xfa, 0xbd, 0x44, 0x65, 0xcc, 0xbe, 0x60, 0x39, 0x6b, 0x3c, 0x5b, 0xd0, 0x53, 0x3e, 0x6d, 0x53, 0x6f, 0xbe, 0x4f, 0xad, 0xa5, 0xbe, 0xd1, 0xd0, 0x84, 0x3e, 0x78, 0x3a, 0x11, 0xbd, 0x20, 0xb3, 0xe8, 0xbd, 0xd8, 0x0c, 0x5a, 0x3d, 0x1b, 0x53, 0x82, 0xbe, 0xa1, 0xc9, 0x84, 0x3e, 0x4d, 0xd4, 0x62, 0xbe, 0x59, 0xc5, 0x9f, 0x3e, 0x08, 0x9a, 0xcc, 0x3e, 0xe2, 0x34, 0x64, 0x3e, 0xee, 0x7e, 0x29, 0xbe, 0x60, 0x71, 0x3a, 0xbd, 0x02, 0x14, 0x5c, 0x3e, 0x7c, 0xdd, 0x49, 0xbe, 0xa0, 0xd3, 0x7d, 0xbc, 0x64, 0x6f, 0xd8, 
0xbd, 0xa2, 0xdb, 0x63, 0x3e, 0x58, 0x31, 0x70, 0xbe, 0xf8, 0x5a, 0x49, 0xbe, 0x4d, 0xa0, 0xa6, 0x3e, 0xf2, 0x34, 0xf8, 0xbd, 0x54, 0x50, 0xb0, 0xbe, 0xdd, 0x92, 0xb8, 0x3e, 0x2b, 0x40, 0xef, 0x3e, 0x7f, 0x2e, 0x43, 0x3e, 0xb1, 0x26, 0xb9, 0xbe, 0x02, 0x88, 0x0b, 0x3e, 0xe5, 0x0f, 0xd6, 0xbe, 0x48, 0xe5, 0x96, 0xbd, 0xb2, 0xac, 0x60, 0x3d, 0x7c, 0x87, 0xd8, 0xbe, 0x57, 0x17, 0x73, 0xbe, 0xe9, 0x40, 0xa1, 0x3e, 0x90, 0x62, 0x19, 0x3d, 0x64, 0x8b, 0x8c, 0x3d, 0xae, 0x5a, 0x78, 0x3e, 0xaa, 0x60, 0x51, 0xbd, 0xf3, 0x73, 0xdf, 0x3c, 0xb8, 0x0b, 0xe8, 0xbd, 0xba, 0x7b, 0x80, 0x3e, 0x7c, 0xc2, 0xad, 0x3e, 0x6a, 0x3f, 0xb1, 0xbe, 0xce, 0x3d, 0x65, 0xbe, 0x18, 0xb6, 0x80, 0xbd, 0xbc, 0x94, 0xbb, 0xbd, 0x0f, 0x59, 0xa9, 0x3e, 0x3b, 0x91, 0xcf, 0x3e, 0xac, 0xd5, 0x63, 0xbe, 0x0c, 0x55, 0xc0, 0x3d, 0xc5, 0xc7, 0x91, 0x3e, 0x57, 0xc1, 0x8c, 0x3e, 0xdf, 0x02, 0x67, 0xbe, 0x40, 0x1a, 0x52, 0x3c, 0x93, 0x8d, 0x60, 0xbe, 0x4c, 0xaa, 0xb7, 0xbd, 0xbf, 0x5c, 0x7b, 0xbe, 0x70, 0xd2, 
0x97, 0xbe, 0xa1, 0x5e, 0xa6, 0xbe, 0xa8, 0x2c, 0xcd, 0xbd, 0xb7, 0x5e, 0xa4, 0x3e, 0x38, 0xc9, 0x67, 0xbe, 0x4a, 0xc8, 0xd6, 0xbe, 0xe1, 0x87, 0x90, 0x3e, 0xe0, 0x6d, 0x32, 0xbd, 0x80, 0xca, 0xb0, 0x3c, 0x8b, 0xa9, 0xb7, 0x3e, 0x2c, 0xb9, 0xad, 0x3d, 0xe8, 0xfd, 0x3b, 0x3d, 0x6e, 0x27, 0xa4, 0xbe, 0x50, 0xd9, 0xc6, 0x3e, 0x28, 0x44, 0xc7, 0xbe, 0x72, 0x70, 0x79, 0x3e, 0x5d, 0x8e, 0xc4, 0xbd, 0xd7, 0x45, 0xca, 0x3e, 0x2e, 0x2d, 0x3b, 0x3e, 0x40, 0x2a, 0x30, 0x3c, 0x23, 0xa8, 0xb1, 0x3e, 0x49, 0x0d, 0x9e, 0x3e, 0x8d, 0x5e, 0x92, 0xbe, 0x9c, 0x77, 0x62, 0xbe, 0x2b, 0xad, 0x8d, 0x3e, 0x14, 0x60, 0xb9, 0xbe, 0x76, 0x61, 0x02, 0x3e, 0x1c, 0x1b, 0xd8, 0xbe, 0x6b, 0x60, 0xc0, 0x3e, 0x76, 0x92, 0x93, 0x3e, 0x12, 0x12, 0x0d, 0xbe, 0xa0, 0x34, 0x81, 0x3e, 0x46, 0x3a, 0xcc, 0xbe, 0x1b, 0xd6, 0xb9, 0x3e, 0xfe, 0x21, 0x23, 0x3e, 0xaf, 0x8e, 0xc6, 0xbe, 0xb4, 0x61, 0x8d, 0xbe, 0xcd, 0x6c, 0xee, 0x3e, 0xb0, 0x27, 0x21, 0xbe, 0xdd, 0xae, 0xac, 0x3e, 0xe8, 0x4a, 0x98, 0xbe, 0xd7, 
0x53, 0xd1, 0x3e, 0x29, 0x87, 0x98, 0x3e, 0xad, 0x50, 0xb5, 0x3e, 0xee, 0x1e, 0xe1, 0xbd, 0xf4, 0x05, 0x69, 0x3c, 0x50, 0x2c, 0xee, 0x3c, 0x59, 0xe4, 0xc3, 0x3e, 0x55, 0x4b, 0x15, 0x3d, 0xec, 0xe9, 0xb0, 0x3d, 0x46, 0x5e, 0xa3, 0xbe, 0xbc, 0xe1, 0xe2, 0x3d, 0xe1, 0x7e, 0xc4, 0x3e, 0x14, 0xe8, 0xd4, 0x3d, 0x00, 0x36, 0xa2, 0xbe, 0xe5, 0x22, 0xba, 0x3e, 0x40, 0x20, 0x57, 0xbc, 0x27, 0xa3, 0xc7, 0x3e, 0xe0, 0x66, 0xf9, 0x3c, 0x9d, 0x62, 0x6b, 0xbe, 0x1a, 0x27, 0x95, 0xbe, 0xe4, 0x62, 0xde, 0xbd, 0x90, 0xed, 0xd2, 0x3c, 0x98, 0x1b, 0xe9, 0xbd, 0x5e, 0xaa, 0xd8, 0xbe, 0xf3, 0x94, 0xb7, 0x3e, 0x2e, 0xdd, 0xc6, 0xbe, 0xec, 0x36, 0x9d, 0xbe, 0x94, 0xad, 0x92, 0xbe, 0x38, 0x4d, 0x57, 0xbd, 0xa4, 0x2f, 0xa5, 0xbe, 0x03, 0xd7, 0xc1, 0xbe, 0x20, 0x9e, 0x89, 0x3c, 0x84, 0x8a, 0xdb, 0x3d, 0x16, 0xc7, 0x42, 0x3e, 0x20, 0xc2, 0xc2, 0xbe, 0xe0, 0x9d, 0xd9, 0x3c, 0xb8, 0xaa, 0x99, 0xbd, 0xd2, 0x25, 0xb3, 0xbe, 0x64, 0xef, 0xe9, 0x3d, 0x86, 0xf5, 0x82, 0xbe, 0x9e, 0x6c, 0x56, 0x3e, 
0x70, 0xeb, 0xb2, 0xbc, 0x2d, 0xc9, 0x87, 0xbe, 0x12, 0x86, 0x7b, 0x3e, 0x22, 0x71, 0x7e, 0x3e, 0x70, 0xb5, 0x8c, 0x3c, 0x85, 0x4d, 0xdc, 0x3e, 0xd1, 0x3e, 0xd7, 0x3e, 0x35, 0x59, 0x9f, 0xbe, 0xe2, 0xd9, 0x4d, 0x3e, 0x00, 0xb4, 0x9c, 0xbe, 0xab, 0x34, 0xbe, 0x3e, 0x7d, 0x0c, 0x9f, 0x3e, 0xb0, 0x84, 0xe2, 0xbd, 0x0a, 0x9d, 0xa8, 0x3e, 0x81, 0xb9, 0xa0, 0x3e, 0x0c, 0x5c, 0xcf, 0xbd, 0xca, 0x4a, 0x5c, 0xbe, 0x4b, 0x82, 0xdb, 0x3e, 0x6b, 0x90, 0x83, 0xbe, 0x4a, 0x63, 0x24, 0x3e, 0x2f, 0x6a, 0xd2, 0x3e, 0x8a, 0xf2, 0x0c, 0xbe, 0x66, 0xf2, 0x24, 0x3e, 0x81, 0x66, 0x8a, 0x3e, 0x2b, 0xc5, 0xda, 0x3e, 0x24, 0x23, 0xba, 0xbe, 0x90, 0x2e, 0xe8, 0x3e, 0xb6, 0xf7, 0xf4, 0x3e, 0x51, 0xbd, 0xa5, 0xbe, 0x2b, 0xd2, 0xa6, 0xbe, 0xc6, 0x0e, 0x31, 0x3e, 0xbc, 0x44, 0xad, 0xbd, 0x9b, 0xd6, 0xb9, 0x3e, 0x0a, 0x8e, 0x11, 0x3e, 0x4c, 0xf4, 0x84, 0xbe, 0xdb, 0xb7, 0x36, 0xbe, 0x5d, 0x1c, 0xc2, 0x3e, 0x0c, 0xb0, 0xb2, 0x3d, 0x33, 0x51, 0x98, 0xbe, 0x91, 0x8c, 0x91, 0xbe, 0x4e, 0x16, 0x4a, 
0x3e, 0xae, 0x4f, 0x57, 0x3e, 0xe2, 0x29, 0x27, 0x3e, 0x80, 0xca, 0xf2, 0x3e, 0x66, 0x92, 0x35, 0xbe, 0xec, 0xee, 0x84, 0xbf, 0x4a, 0x8d, 0x79, 0xbf, 0xa6, 0xb0, 0x2c, 0xbe, 0x10, 0xde, 0x99, 0xbc, 0xf8, 0x1d, 0x11, 0xbe, 0x56, 0xff, 0xff, 0xff, 0x04, 0x00, 0x00, 0x00, 0x40, 0x00, 0x00, 0x00, 0x90, 0xc0, 0x24, 0xbd, 0xbc, 0xce, 0x4f, 0x3e, 0xa2, 0x73, 0xf5, 0xbe, 0xe4, 0xd4, 0xdb, 0xbd, 0xf0, 0xc6, 0x08, 0xbf, 0xcd, 0x0a, 0x9f, 0xbe, 0xd7, 0x7b, 0x8b, 0xbe, 0x6b, 0x05, 0xce, 0xbe, 0xbf, 0x2b, 0xae, 0x3e, 0x46, 0xad, 0x9d, 0x3d, 0x32, 0x8c, 0xf0, 0xbe, 0x84, 0x2b, 0xf8, 0x3e, 0x37, 0x49, 0xb4, 0x3e, 0x42, 0xc4, 0x2c, 0xbe, 0xe6, 0x6b, 0x05, 0xbe, 0x8c, 0xaf, 0xbf, 0xbe, 0xa2, 0xff, 0xff, 0xff, 0x04, 0x00, 0x00, 0x00, 0x40, 0x00, 0x00, 0x00, 0x00, 0x00, 0x00, 0x00, 0x18, 0xca, 0x2b, 0xbe, 0x00, 0x00, 0x00, 0x00, 0x00, 0x00, 0x00, 0x00, 0x00, 0x00, 0x00, 0x00, 0x00, 0x00, 0x00, 0x00, 0x00, 0x00, 0x00, 0x00, 0x00, 0x00, 0x00, 0x00, 0xb2, 0x33, 0x44, 0x3e, 0xb1, 0xc5, 
0x2b, 0x3e, 0x00, 0x00, 0x00, 0x00, 0x26, 0xd0, 0xed, 0xbd, 0xf3, 0x06, 0xb2, 0xbc, 0x00, 0x00, 0x00, 0x00, 0x00, 0x00, 0x00, 0x00, 0x00, 0x00, 0x00, 0x00, 0xee, 0xff, 0xff, 0xff, 0x04, 0x00, 0x00, 0x00, 0x04, 0x00, 0x00, 0x00, 0x90, 0xb6, 0x8c, 0x3e, 0x00, 0x00, 0x06, 0x00, 0x08, 0x00, 0x04, 0x00, 0x06, 0x00, 0x00, 0x00, 0x04, 0x00, 0x00, 0x00, 0x40, 0x00, 0x00, 0x00, 0xe6, 0x89, 0x8c, 0x3e, 0x47, 0xf5, 0x1e, 0xbe, 0x00, 0x00, 0x00, 0x00, 0xe8, 0x1a, 0x8d, 0x3e, 0x2d, 0x81, 0x76, 0xbe, 0x98, 0x85, 0xf4, 0xbd, 0xc2, 0x5f, 0x6e, 0xbe, 0x00, 0x00, 0x00, 0x00, 0x08, 0x84, 0x43, 0xbb, 0xbd, 0xea, 0x91, 0xbe, 0x01, 0xae, 0x38, 0xbe, 0x00, 0x00, 0x00, 0x00, 0x00, 0x00, 0x00, 0x00, 0x6c, 0xb9, 0x8b, 0x3e, 0x46, 0x68, 0x8c, 0x3e, 0x8b, 0x7b, 0xd1, 0x3e, 0x20, 0xfb, 0xff, 0xff, 0x24, 0xfb, 0xff, 0xff, 0x0f, 0x00, 0x00, 0x00, 0x4d, 0x4c, 0x49, 0x52, 0x20, 0x43, 0x6f, 0x6e, 0x76, 0x65, 0x72, 0x74, 0x65, 0x64, 0x2e, 0x00, 0x01, 0x00, 0x00, 0x00, 0x14, 0x00, 0x00, 0x00, 0x00, 
0x00, 0x0e, 0x00, 0x18, 0x00, 0x14, 0x00, 0x10, 0x00, 0x0c, 0x00, 0x08, 0x00, 0x04, 0x00, 0x0e, 0x00, 0x00, 0x00, 0x14, 0x00, 0x00, 0x00, 0x1c, 0x00, 0x00, 0x00, 0xd8, 0x00, 0x00, 0x00, 0xdc, 0x00, 0x00, 0x00, 0xe0, 0x00, 0x00, 0x00, 0x04, 0x00, 0x00, 0x00, 0x6d, 0x61, 0x69, 0x6e, 0x00, 0x00, 0x00, 0x00, 0x03, 0x00, 0x00, 0x00, 0x80, 0x00, 0x00, 0x00, 0x38, 0x00, 0x00, 0x00, 0x04, 0x00, 0x00, 0x00, 0x9a, 0xff, 0xff, 0xff, 0x10, 0x00, 0x00, 0x00, 0x00, 0x00, 0x00, 0x08, 0x0c, 0x00, 0x00, 0x00, 0x10, 0x00, 0x00, 0x00, 0x9c, 0xfb, 0xff, 0xff, 0x01, 0x00, 0x00, 0x00, 0x09, 0x00, 0x00, 0x00, 0x03, 0x00, 0x00, 0x00, 0x08, 0x00, 0x00, 0x00, 0x06, 0x00, 0x00, 0x00, 0x02, 0x00, 0x00, 0x00, 0xca, 0xff, 0xff, 0xff, 0x10, 0x00, 0x00, 0x00, 0x00, 0x00, 0x00, 0x08, 0x10, 0x00, 0x00, 0x00, 0x14, 0x00, 0x00, 0x00, 0xba, 0xff, 0xff, 0xff, 0x00, 0x00, 0x00, 0x01, 0x01, 0x00, 0x00, 0x00, 0x08, 0x00, 0x00, 0x00, 0x03, 0x00, 0x00, 0x00, 0x07, 0x00, 0x00, 0x00, 0x05, 0x00, 0x00, 0x00, 
0x01, 0x00, 0x00, 0x00, 0x00, 0x00, 0x0e, 0x00, 0x16, 0x00, 0x00, 0x00, 0x10, 0x00, 0x0c, 0x00, 0x0b, 0x00, 0x04, 0x00, 0x0e, 0x00, 0x00, 0x00, 0x18, 0x00, 0x00, 0x00, 0x00, 0x00, 0x00, 0x08, 0x18, 0x00, 0x00, 0x00, 0x1c, 0x00, 0x00, 0x00, 0x00, 0x00, 0x06, 0x00, 0x08, 0x00, 0x07, 0x00, 0x06, 0x00, 0x00, 0x00, 0x00, 0x00, 0x00, 0x01, 0x01, 0x00, 0x00, 0x00, 0x07, 0x00, 0x00, 0x00, 0x03, 0x00, 0x00, 0x00, 0x00, 0x00, 0x00, 0x00, 0x04, 0x00, 0x00, 0x00, 0x03, 0x00, 0x00, 0x00, 0x01, 0x00, 0x00, 0x00, 0x09, 0x00, 0x00, 0x00, 0x01, 0x00, 0x00, 0x00, 0x00, 0x00, 0x00, 0x00, 0x0a, 0x00, 0x00, 0x00, 0x8c, 0x03, 0x00, 0x00, 0x1c, 0x03, 0x00, 0x00, 0xac, 0x02, 0x00, 0x00, 0x58, 0x02, 0x00, 0x00, 0x10, 0x02, 0x00, 0x00, 0xc4, 0x01, 0x00, 0x00, 0x78, 0x01, 0x00, 0x00, 0xf0, 0x00, 0x00, 0x00, 0x60, 0x00, 0x00, 0x00, 0x04, 0x00, 0x00, 0x00, 0xb2, 0xfc, 0xff, 0xff, 0x00, 0x00, 0x00, 0x01, 0x14, 0x00, 0x00, 0x00, 0x1c, 0x00, 0x00, 0x00, 0x1c, 0x00, 0x00, 0x00, 0x0a, 0x00, 0x00, 
0x00, 0x34, 0x00, 0x00, 0x00, 0x02, 0x00, 0x00, 0x00, 0xff, 0xff, 0xff, 0xff, 0x01, 0x00, 0x00, 0x00, 0x9c, 0xfc, 0xff, 0xff, 0x19, 0x00, 0x00, 0x00, 0x53, 0x74, 0x61, 0x74, 0x65, 0x66, 0x75, 0x6c, 0x50, 0x61, 0x72, 0x74, 0x69, 0x74, 0x69, 0x6f, 0x6e, 0x65, 0x64, 0x43, 0x61, 0x6c, 0x6c, 0x3a, 0x30, 0x00, 0x00, 0x00, 0x02, 0x00, 0x00, 0x00, 0x01, 0x00, 0x00, 0x00, 0x01, 0x00, 0x00, 0x00, 0x0a, 0xfd, 0xff, 0xff, 0x00, 0x00, 0x00, 0x01, 0x14, 0x00, 0x00, 0x00, 0x1c, 0x00, 0x00, 0x00, 0x1c, 0x00, 0x00, 0x00, 0x09, 0x00, 0x00, 0x00, 0x68, 0x00, 0x00, 0x00, 0x02, 0x00, 0x00, 0x00, 0xff, 0xff, 0xff, 0xff, 0x10, 0x00, 0x00, 0x00, 0xf4, 0xfc, 0xff, 0xff, 0x4c, 0x00, 0x00, 0x00, 0x73, 0x65, 0x71, 0x75, 0x65, 0x6e, 0x74, 0x69, 0x61, 0x6c, 0x2f, 0x64, 0x65, 0x6e, 0x73, 0x65, 0x5f, 0x31, 0x2f, 0x4d, 0x61, 0x74, 0x4d, 0x75, 0x6c, 0x3b, 0x73, 0x65, 0x71, 0x75, 0x65, 0x6e, 0x74, 0x69, 0x61, 0x6c, 0x2f, 0x64, 0x65, 0x6e, 0x73, 0x65, 0x5f, 0x31, 0x2f, 0x52, 0x65, 0x6c, 0x75, 0x3b, 
0x73, 0x65, 0x71, 0x75, 0x65, 0x6e, 0x74, 0x69, 0x61, 0x6c, 0x2f, 0x64, 0x65, 0x6e, 0x73, 0x65, 0x5f, 0x31, 0x2f, 0x42, 0x69, 0x61, 0x73, 0x41, 0x64, 0x64, 0x00, 0x00, 0x00, 0x00, 0x02, 0x00, 0x00, 0x00, 0x01, 0x00, 0x00, 0x00, 0x10, 0x00, 0x00, 0x00, 0x96, 0xfd, 0xff, 0xff, 0x00, 0x00, 0x00, 0x01, 0x14, 0x00, 0x00, 0x00, 0x1c, 0x00, 0x00, 0x00, 0x1c, 0x00, 0x00, 0x00, 0x08, 0x00, 0x00, 0x00, 0x60, 0x00, 0x00, 0x00, 0x02, 0x00, 0x00, 0x00, 0xff, 0xff, 0xff, 0xff, 0x10, 0x00, 0x00, 0x00, 0x80, 0xfd, 0xff, 0xff, 0x46, 0x00, 0x00, 0x00, 0x73, 0x65, 0x71, 0x75, 0x65, 0x6e, 0x74, 0x69, 0x61, 0x6c, 0x2f, 0x64, 0x65, 0x6e, 0x73, 0x65, 0x2f, 0x4d, 0x61, 0x74, 0x4d, 0x75, 0x6c, 0x3b, 0x73, 0x65, 0x71, 0x75, 0x65, 0x6e, 0x74, 0x69, 0x61, 0x6c, 0x2f, 0x64, 0x65, 0x6e, 0x73, 0x65, 0x2f, 0x52, 0x65, 0x6c, 0x75, 0x3b, 0x73, 0x65, 0x71, 0x75, 0x65, 0x6e, 0x74, 0x69, 0x61, 0x6c, 0x2f, 0x64, 0x65, 0x6e, 0x73, 0x65, 0x2f, 0x42, 0x69, 0x61, 0x73, 0x41, 0x64, 0x64, 0x00, 0x00, 0x02, 
0x00, 0x00, 0x00, 0x01, 0x00, 0x00, 0x00, 0x10, 0x00, 0x00, 0x00, 0x86, 0xfe, 0xff, 0xff, 0x00, 0x00, 0x00, 0x01, 0x10, 0x00, 0x00, 0x00, 0x10, 0x00, 0x00, 0x00, 0x07, 0x00, 0x00, 0x00, 0x28, 0x00, 0x00, 0x00, 0xf4, 0xfd, 0xff, 0xff, 0x19, 0x00, 0x00, 0x00, 0x73, 0x65, 0x71, 0x75, 0x65, 0x6e, 0x74, 0x69, 0x61, 0x6c, 0x2f, 0x64, 0x65, 0x6e, 0x73, 0x65, 0x5f, 0x32, 0x2f, 0x4d, 0x61, 0x74, 0x4d, 0x75, 0x6c, 0x00, 0x00, 0x00, 0x02, 0x00, 0x00, 0x00, 0x01, 0x00, 0x00, 0x00, 0x10, 0x00, 0x00, 0x00, 0xce, 0xfe, 0xff, 0xff, 0x00, 0x00, 0x00, 0x01, 0x10, 0x00, 0x00, 0x00, 0x10, 0x00, 0x00, 0x00, 0x06, 0x00, 0x00, 0x00, 0x28, 0x00, 0x00, 0x00, 0x3c, 0xfe, 0xff, 0xff, 0x19, 0x00, 0x00, 0x00, 0x73, 0x65, 0x71, 0x75, 0x65, 0x6e, 0x74, 0x69, 0x61, 0x6c, 0x2f, 0x64, 0x65, 0x6e, 0x73, 0x65, 0x5f, 0x31, 0x2f, 0x4d, 0x61, 0x74, 0x4d, 0x75, 0x6c, 0x00, 0x00, 0x00, 0x02, 0x00, 0x00, 0x00, 0x10, 0x00, 0x00, 0x00, 0x10, 0x00, 0x00, 0x00, 0x16, 0xff, 0xff, 0xff, 0x00, 0x00, 0x00, 0x01, 
0x10, 0x00, 0x00, 0x00, 0x10, 0x00, 0x00, 0x00, 0x05, 0x00, 0x00, 0x00, 0x24, 0x00, 0x00, 0x00, 0x84, 0xfe, 0xff, 0xff, 0x17, 0x00, 0x00, 0x00, 0x73, 0x65, 0x71, 0x75, 0x65, 0x6e, 0x74, 0x69, 0x61, 0x6c, 0x2f, 0x64, 0x65, 0x6e, 0x73, 0x65, 0x2f, 0x4d, 0x61, 0x74, 0x4d, 0x75, 0x6c, 0x00, 0x02, 0x00, 0x00, 0x00, 0x10, 0x00, 0x00, 0x00, 0x01, 0x00, 0x00, 0x00, 0x5a, 0xff, 0xff, 0xff, 0x00, 0x00, 0x00, 0x01, 0x10, 0x00, 0x00, 0x00, 0x10, 0x00, 0x00, 0x00, 0x04, 0x00, 0x00, 0x00, 0x34, 0x00, 0x00, 0x00, 0xc8, 0xfe, 0xff, 0xff, 0x27, 0x00, 0x00, 0x00, 0x73, 0x65, 0x71, 0x75, 0x65, 0x6e, 0x74, 0x69, 0x61, 0x6c, 0x2f, 0x64, 0x65, 0x6e, 0x73, 0x65, 0x2f, 0x42, 0x69, 0x61, 0x73, 0x41, 0x64, 0x64, 0x2f, 0x52, 0x65, 0x61, 0x64, 0x56, 0x61, 0x72, 0x69, 0x61, 0x62, 0x6c, 0x65, 0x4f, 0x70, 0x00, 0x01, 0x00, 0x00, 0x00, 0x10, 0x00, 0x00, 0x00, 0xaa, 0xff, 0xff, 0xff, 0x00, 0x00, 0x00, 0x01, 0x10, 0x00, 0x00, 0x00, 0x10, 0x00, 0x00, 0x00, 0x03, 0x00, 0x00, 0x00, 0x38, 0x00, 0x00, 
0x00, 0x18, 0xff, 0xff, 0xff, 0x29, 0x00, 0x00, 0x00, 0x73, 0x65, 0x71, 0x75, 0x65, 0x6e, 0x74, 0x69, 0x61, 0x6c, 0x2f, 0x64, 0x65, 0x6e, 0x73, 0x65, 0x5f, 0x32, 0x2f, 0x42, 0x69, 0x61, 0x73, 0x41, 0x64, 0x64, 0x2f, 0x52, 0x65, 0x61, 0x64, 0x56, 0x61, 0x72, 0x69, 0x61, 0x62, 0x6c, 0x65, 0x4f, 0x70, 0x00, 0x00, 0x00, 0x01, 0x00, 0x00, 0x00, 0x01, 0x00, 0x00, 0x00, 0x00, 0x00, 0x16, 0x00, 0x18, 0x00, 0x14, 0x00, 0x00, 0x00, 0x10, 0x00, 0x0c, 0x00, 0x08, 0x00, 0x00, 0x00, 0x00, 0x00, 0x00, 0x00, 0x07, 0x00, 0x16, 0x00, 0x00, 0x00, 0x00, 0x00, 0x00, 0x01, 0x10, 0x00, 0x00, 0x00, 0x10, 0x00, 0x00, 0x00, 0x02, 0x00, 0x00, 0x00, 0x38, 0x00, 0x00, 0x00, 0x84, 0xff, 0xff, 0xff, 0x29, 0x00, 0x00, 0x00, 0x73, 0x65, 0x71, 0x75, 0x65, 0x6e, 0x74, 0x69, 0x61, 0x6c, 0x2f, 0x64, 0x65, 0x6e, 0x73, 0x65, 0x5f, 0x31, 0x2f, 0x42, 0x69, 0x61, 0x73, 0x41, 0x64, 0x64, 0x2f, 0x52, 0x65, 0x61, 0x64, 0x56, 0x61, 0x72, 0x69, 0x61, 0x62, 0x6c, 0x65, 0x4f, 0x70, 0x00, 0x00, 0x00, 0x01, 0x00, 
0x00, 0x00, 0x10, 0x00, 0x00, 0x00, 0x00, 0x00, 0x16, 0x00, 0x1c, 0x00, 0x18, 0x00, 0x00, 0x00, 0x14, 0x00, 0x10, 0x00, 0x0c, 0x00, 0x00, 0x00, 0x00, 0x00, 0x08, 0x00, 0x07, 0x00, 0x16, 0x00, 0x00, 0x00, 0x00, 0x00, 0x00, 0x01, 0x14, 0x00, 0x00, 0x00, 0x20, 0x00, 0x00, 0x00, 0x20, 0x00, 0x00, 0x00, 0x01, 0x00, 0x00, 0x00, 0x3c, 0x00, 0x00, 0x00, 0x02, 0x00, 0x00, 0x00, 0xff, 0xff, 0xff, 0xff, 0x01, 0x00, 0x00, 0x00, 0x04, 0x00, 0x04, 0x00, 0x04, 0x00, 0x00, 0x00, 0x1d, 0x00, 0x00, 0x00, 0x73, 0x65, 0x72, 0x76, 0x69, 0x6e, 0x67, 0x5f, 0x64, 0x65, 0x66, 0x61, 0x75, 0x6c, 0x74, 0x5f, 0x64, 0x65, 0x6e, 0x73, 0x65, 0x5f, 0x69, 0x6e, 0x70, 0x75, 0x74, 0x3a, 0x30, 0x00, 0x00, 0x00, 0x02, 0x00, 0x00, 0x00, 0x01, 0x00, 0x00, 0x00, 0x01, 0x00, 0x00, 0x00, 0x01, 0x00, 0x00, 0x00, 0x10, 0x00, 0x00, 0x00, 0x0c, 0x00, 0x0c, 0x00, 0x0b, 0x00, 0x00, 0x00, 0x00, 0x00, 0x04, 0x00, 0x0c, 0x00, 0x00, 0x00, 0x09, 0x00, 0x00, 0x00, 0x00, 0x00, 0x00, 0x09 };

/**
 * Wrapper around the EloquentTinyML library
 */
template<uint32_t arenaSize>
class TensorFlowPorter {
    public:
        Eloquent::TinyML::TensorFlow::AllOpsTensorFlow<1, 1, arenaSize> tf;

        /**
         * Init model
         */
        bool begin() {
            return tf.begin(modelData);
        }

        /**
         * Proxy
         */
        uint8_t predict(uint8_t *input, uint8_t *output = NULL) {
            return tf.predict(input, output);
        }

        /**
         * Proxy
         */
        int8_t predict(int8_t *input, int8_t *output = NULL) {
            return tf.predict(input, output);
        }

        /**
         * Proxy
         */
        float predict(float *input, float *output = NULL) {
            return tf.predict(input, output);
        }

        /**
         * Proxy
         */
        template<typename T>
        uint8_t predictClass(T *input) {
            return tf.predictClass(input);
        }

        /**
         * Proxy
         */
        float getScoreAt(uint8_t index) {
            return tf.getScoreAt(index);
        }

        /**
         * Proxy
         */
        String getErrorMessage() {
            return tf.getErrorMessage();
        }
};



TensorFlowPorter<ARENA_SIZE> sineNN;


#endif